{"structure": [1, 6, 6, 6, 6, 6, 6, 2, 1], "file": "Data/1in_sine.txt", "activation": "TanH", "layers": [{"layer_id": 0, "layer_label": "Input", "number_of_neurons": 1, "layer_bias": 0.2253930279236026, "weights": [{"neuron_id": "0", "weights": null}]}, {"layer_id": 1, "layer_label": "Hidden", "number_of_neurons": 6, "layer_bias": 0.18352089030467258, "weights": [{"neuron_id": "0", "weights": [0.12177718096275347]}, {"neuron_id": "1", "weights": [-0.07721260860403165]}, {"neuron_id": "2", "weights": [0.09214392067172726]}, {"neuron_id": "3", "weights": [-0.03649073988514095]}, {"neuron_id": "4", "weights": [-0.16104025605739708]}, {"neuron_id": "5", "weights": [-0.20090558069116485]}]}, {"layer_id": 2, "layer_label": "Hidden", "number_of_neurons": 6, "layer_bias": 0.11018721806722255, "weights": [{"neuron_id": "0", "weights": [-0.2738881138317289, 0.2447221053051593, -0.08465128426904805, -0.18615789156109772, -0.28307102952290125, 0.27696896003675014]}, {"neuron_id": "1", "weights": [-0.014448541140219467, -0.16674019995155598, 0.298900057933122, -0.01925675767594936, 0.2104352329241442, 0.21481514326823267]}, {"neuron_id": "2", "weights": [-0.24954823334851517, 0.1076954938033169, 0.21310333065642667, -0.13999271847176736, -0.21933158001478528, 0.07729230719932713]}, {"neuron_id": "3", "weights": [0.07831857712564162, -0.2937039919169284, 0.18977070465393434, 0.1100943472936531, 0.29050308468807956, -0.022991530538924446]}, {"neuron_id": "4", "weights": [-0.22148025485981704, -0.06775479124737485, -0.1870799730255745, -0.1023581021619539, -0.13398152134441904, 0.2923101129279124]}, {"neuron_id": "5", "weights": [-0.04479372239856639, -0.25629695350761855, 0.17463399597493412, 0.27876228945334375, 0.2574264246462523, -0.05095591449642606]}]}, {"layer_id": 3, "layer_label": "Hidden", "number_of_neurons": 6, "layer_bias": 0.1975020480404779, "weights": [{"neuron_id": "0", "weights": [-0.00537645837345488, -0.2960499799857625, 0.140544814828987, 0.2571252009367187, -0.252027717520353, -0.26100241950501524]}, {"neuron_id": "1", "weights": [0.17992632268753653, -0.11195531866974158, 0.2562122260957962, -0.12899849237993458, 0.22914943343108246, -0.08859197133745134]}, {"neuron_id": "2", "weights": [0.18419910378722265, -0.11002746747935215, -0.2199303649788877, 0.08602033513841544, 0.20202963850364783, 0.1717276162047621]}, {"neuron_id": "3", "weights": [0.1535226679315397, 0.07240486480517075, 0.08636049172956926, 0.29964806698125757, 0.12125752134342786, -0.009616219607756323]}, {"neuron_id": "4", "weights": [-0.06569397357299167, 0.03038885991174249, 0.09372919480872752, 0.11441326471500596, -0.09274662363462903, -0.25419179920789414]}, {"neuron_id": "5", "weights": [0.19897446859173623, -0.06177881050906247, 0.04453523674441225, -0.03253950473787995, -0.29271541083821107, -0.2681047054075761]}]}, {"layer_id": 4, "layer_label": "Hidden", "number_of_neurons": 6, "layer_bias": 0.12677953457670407, "weights": [{"neuron_id": "0", "weights": [0.015096866795662045, -0.29049360323181556, 0.2450885791191505, -0.13276619544915674, 0.2183381339281125, -0.13231081883992538]}, {"neuron_id": "1", "weights": [0.1552366466800396, 0.08534114257141338, -0.03357896143356849, 0.07988640474283777, 0.11907529773144011, 0.10771752512486675]}, {"neuron_id": "2", "weights": [-0.018585845486445034, 0.09084954031405354, 0.1705541779892501, 0.17027895353522987, -0.034360834284855285, -0.0799158315513803]}, {"neuron_id": "3", "weights": [-0.07534983886655336, -0.12651406725355102, 0.2109201746574719, -0.28044838124334037, 0.1607867697822734, -0.22510801141569156]}, {"neuron_id": "4", "weights": [0.23503614303426, 0.15837288057660615, -0.1577106171962411, -0.008121776134539432, -0.0659038123082847, 0.022107506945660136]}, {"neuron_id": "5", "weights": [-0.14540023023218043, -0.2812692002205749, 0.02551543822856762, -0.03965652214942458, 0.03900989597026091, -0.02344198106696641]}]}, {"layer_id": 5, "layer_label": "Hidden", "number_of_neurons": 6, "layer_bias": 0.1117653837172587, "weights": [{"neuron_id": "0", "weights": [0.19371564823120985, 0.1946808588866345, -0.1612107901785755, -0.0661346711721538, -0.16412839892756864, -0.30905920602739734]}, {"neuron_id": "1", "weights": [-0.2557476656959608, -0.3052542050122161, 0.030043838042318142, -0.2641175784910346, -0.11566046049650255, -0.01047843812452743]}, {"neuron_id": "2", "weights": [-0.1741599018546291, 0.22528160528971974, -0.07933438367453013, 0.13487973368584374, 0.07680101857970212, -0.05832466406634782]}, {"neuron_id": "3", "weights": [-0.2783869284154556, -0.023664769119584025, -0.031372257244528655, 0.03327214471082051, 0.01342563062555895, -0.1612087043857062]}, {"neuron_id": "4", "weights": [-0.0730677070016865, -0.19345974780152375, 0.08178910620555749, 0.04364660662141791, 0.10575739757362508, -0.3049917575930472]}, {"neuron_id": "5", "weights": [0.23504011261007401, -0.2087093610989472, 0.10494285485677242, -0.11926926541509561, -0.07139679069027155, 0.19595432237617397]}]}, {"layer_id": 6, "layer_label": "Hidden", "number_of_neurons": 6, "layer_bias": 0.006956803131657485, "weights": [{"neuron_id": "0", "weights": [-0.08045480590756039, -0.07930463747812204, 0.14400051914331635, -0.22862394286355883, -0.059080051579849295, -0.06335433607657368]}, {"neuron_id": "1", "weights": [-0.13064933854890712, 0.004224868803327778, 0.15348021219290214, -0.22228471464150942, -0.21253380258130206, 0.009177830312932922]}, {"neuron_id": "2", "weights": [-0.14987239890647908, 0.13826225756325827, 0.08849155114428035, 0.07045439676058872, 0.2918687545637387, 0.1557511401014892]}, {"neuron_id": "3", "weights": [-0.16321699280403398, -0.05347615917980954, 0.2612193152977575, 0.14262737907637293, -0.25022150415591693, 0.22143968682069398]}, {"neuron_id": "4", "weights": [-0.06317637622639469, 0.2525978079737283, -0.10921030958965541, -0.2590056413916028, 0.24257739552027763, -0.042894451862242756]}, {"neuron_id": "5", "weights": [-0.1586186428597824, 0.2502404564114866, -0.2628944817468293, -0.24459541562094056, -0.25957860245830117, 0.27926953012954137]}]}, {"layer_id": 7, "layer_label": "Hidden", "number_of_neurons": 2, "layer_bias": 0.18048874170103385, "weights": [{"neuron_id": "0", "weights": [-0.10983178714369189, -0.07445609472748281, 0.016232152181820385, 0.02674570147412849, 0.18210114935300484, -0.09700007382808361]}, {"neuron_id": "1", "weights": [0.2825311376364069, 0.13425358462796058, 0.2803441663344741, 0.07850145867179942, -0.2489073552490578, 0.1556639609013185]}]}, {"layer_id": 8, "layer_label": "Output", "number_of_neurons": 1, "layer_bias": 0.14727841832190416, "weights": [{"neuron_id": "0", "weights": [-0.3338178747712903, -0.5127085009084436]}]}]}