{"structure": [1, 6, 6, 6, 6, 6, 6, 2, 1], "file": "Data/1in_sine.txt", "activation": "TanH", "layers": [{"layer_id": 0, "layer_label": "Input", "number_of_neurons": 1, "layer_bias": 0.2253930279236026, "weights": [{"neuron_id": "0", "weights": null}]}, {"layer_id": 1, "layer_label": "Hidden", "number_of_neurons": 6, "layer_bias": 0.18352089030467258, "weights": [{"neuron_id": "0", "weights": [0.1406198234779573]}, {"neuron_id": "1", "weights": [-0.05827986900806292]}, {"neuron_id": "2", "weights": [0.11103418925221153]}, {"neuron_id": "3", "weights": [-0.017532229445597364]}, {"neuron_id": "4", "weights": [-0.1422316401751059]}, {"neuron_id": "5", "weights": [-0.1821888820622095]}]}, {"layer_id": 2, "layer_label": "Hidden", "number_of_neurons": 6, "layer_bias": 0.11018721806722255, "weights": [{"neuron_id": "0", "weights": [-0.2773261073295612, 0.24640029952697706, -0.08733047459832244, -0.1855280948044346, -0.27924156531908906, 0.2818157392506475]}, {"neuron_id": "1", "weights": [-0.017788624742461005, -0.1651511124235427, 0.29629098533475556, -0.018677814222261033, 0.2140972031609041, 0.2194574084319147]}, {"neuron_id": "2", "weights": [-0.2529481158361667, 0.10940909015540629, 0.21046191865533107, -0.13932687386043788, -0.2154681893591236, 0.08217224360738756]}, {"neuron_id": "3", "weights": [0.07500925913062031, -0.2920252494071858, 0.1872012679193941, 0.11075105428246862, 0.2942788268786244, -0.018224220898525833]}, {"neuron_id": "4", "weights": [-0.22491296082355514, -0.06606455482108231, -0.18975285441681916, -0.10171762247696405, -0.13013726424225802, 0.2971729683417082]}, {"neuron_id": "5", "weights": [-0.04812387096552801, -0.2546417607229595, 0.17204328146969927, 0.2793959470915886, 0.2611776821489611, -0.046213488891762966]}]}, {"layer_id": 3, "layer_label": "Hidden", "number_of_neurons": 6, "layer_bias": 0.1975020480404779, "weights": [{"neuron_id": "0", "weights": [-0.0026408907542553425, -0.2946597875113944, 0.14046424276795688, 0.2569681624666253, -0.24888685839849792, -0.26059205615351394]}, {"neuron_id": "1", "weights": [0.18259269455705077, -0.11072516216550957, 0.25608034844151534, -0.12927763136763293, 0.23223168437488148, -0.08831088365419026]}, {"neuron_id": "2", "weights": [0.18681111210019377, -0.10884021473923153, -0.22006715866632748, 0.08572889936052562, 0.20505202030170017, 0.17198600748119816]}, {"neuron_id": "3", "weights": [0.15605977396236403, 0.0735601533709979, 0.08622850063059362, 0.29936708377695576, 0.12419288606577684, -0.009363260036343135]}, {"neuron_id": "4", "weights": [-0.06300239864087773, 0.03172637754443411, 0.09363696869053408, 0.11422814316106562, -0.08965121568240891, -0.25381690131230994]}, {"neuron_id": "5", "weights": [0.20169937321282036, -0.0604327808696507, 0.044438433922434, -0.03273504356705469, -0.2895803293300753, -0.2677328283885599]}]}, {"layer_id": 4, "layer_label": "Hidden", "number_of_neurons": 6, "layer_bias": 0.12677953457670407, "weights": [{"neuron_id": "0", "weights": [0.004102267268569289, -0.2822260011357918, 0.2532583812290573, -0.12673396537960313, 0.21384271824055298, -0.13676348702078936]}, {"neuron_id": "1", "weights": [0.14462248206337933, 0.09339839207242599, -0.025603846513942846, 0.08580605440263643, 0.11476886379017892, 0.10344117204480986]}, {"neuron_id": "2", "weights": [-0.029541829748578354, 0.09853799941122118, 0.17805671326643463, 0.17559242206929096, -0.03908287321898804, -0.08451424059924123]}, {"neuron_id": "3", "weights": [-0.08650800426046878, -0.11823374450755897, 0.21908345255722578, -0.27446631826595297, 0.1561758474708817, -0.22965928634125873]}, {"neuron_id": "4", "weights": [0.22414562127641002, 0.16663188506383633, -0.14953724577514182, -0.0020582651595049597, -0.07032595124988707, 0.017717438515486152]}, {"neuron_id": "5", "weights": [-0.1565497050748542, -0.272965408646357, 0.0337070873618188, -0.03364117991706148, 0.03441574860219576, -0.02798093466836048]}]}, {"layer_id": 5, "layer_label": "Hidden", "number_of_neurons": 6, "layer_bias": 0.1117653837172587, "weights": [{"neuron_id": "0", "weights": [0.19890351154957436, 0.199970317299664, -0.17236867164807926, -0.0665343002129358, -0.15702463012771498, -0.3066862186725083]}, {"neuron_id": "1", "weights": [-0.2504650912821837, -0.29983324351161017, 0.018855290018392337, -0.2644975142768092, -0.10843417422686263, -0.008060645822977252]}, {"neuron_id": "2", "weights": [-0.16902353029131295, 0.23051754675176975, -0.0903867354575469, 0.13448326608855452, 0.08383455160391554, -0.05597527707183551]}, {"neuron_id": "3", "weights": [-0.2731018691599286, -0.01822283782561406, -0.042474738100333406, 0.032906280340765565, 0.02065150999980905, -0.1587889841208787]}, {"neuron_id": "4", "weights": [-0.0677749042351769, -0.18799394946440523, 0.07074906925283155, 0.04329248398332812, 0.11299060489210108, -0.30256781702808133]}, {"neuron_id": "5", "weights": [0.24028654301809402, -0.20330301070206339, 0.09394199014795002, -0.11962928614755779, -0.06422451614688059, 0.19835650415596096]}]}, {"layer_id": 6, "layer_label": "Hidden", "number_of_neurons": 6, "layer_bias": 0.006956803131657485, "weights": [{"neuron_id": "0", "weights": [-0.08443783266192982, -0.07414564160494237, 0.14064353977717173, -0.2273416479504822, -0.0566395535170419, -0.0628327872450614]}, {"neuron_id": "1", "weights": [-0.13463264663858696, 0.009382977933061315, 0.15012240731677184, -0.22100333228100907, -0.21009461080306627, 0.00969811228117411]}, {"neuron_id": "2", "weights": [-0.15157477934070976, 0.1403633103786225, 0.08700697660020582, 0.0709182414425913, 0.2927879817753722, 0.155866642689771]}, {"neuron_id": "3", "weights": [-0.1649101652906146, -0.05137456749569517, 0.25974833110505474, 0.14309823378345385, -0.24929322302951332, 0.22156694051409404]}, {"neuron_id": "4", "weights": [-0.06831892517070257, 0.2598024954836621, -0.11327651441100561, -0.2569035664962008, 0.24638503227362143, -0.04165796116440528]}, {"neuron_id": "5", "weights": [-0.16373440681602774, 0.25742603942730996, -0.26693088199680015, -0.24248953358013195, -0.2557690673517655, 0.28051868778533207]}]}, {"layer_id": 7, "layer_label": "Hidden", "number_of_neurons": 2, "layer_bias": 0.18048874170103385, "weights": [{"neuron_id": "0", "weights": [-0.11296409239254433, -0.07686045335600879, 0.022512823472953927, 0.024699954586181166, 0.18869125900121198, -0.09129934980512833]}, {"neuron_id": "1", "weights": [0.27771175419013966, 0.13066871917288064, 0.2896488489001423, 0.07483225781045574, -0.23834397515269648, 0.16522324000809852]}]}, {"layer_id": 8, "layer_label": "Output", "number_of_neurons": 1, "layer_bias": 0.14727841832190416, "weights": [{"neuron_id": "0", "weights": [-0.3195802697882666, -0.4934486490705441]}]}]}