{"structure": [1, 6, 6, 6, 6, 6, 6, 1], "file": "Data/1in_sine.txt", "activation": "TanH", "layers": [{"layer_id": 0, "layer_label": "Input", "number_of_neurons": 1, "layer_bias": 0.24692489100028864, "weights": [{"neuron_id": "0", "weights": null}]}, {"layer_id": 1, "layer_label": "Hidden", "number_of_neurons": 6, "layer_bias": 0.1654250079677109, "weights": [{"neuron_id": "0", "weights": [-0.17906902503900785]}, {"neuron_id": "1", "weights": [-0.1427964916160208]}, {"neuron_id": "2", "weights": [-0.036893799787271614]}, {"neuron_id": "3", "weights": [0.1154664779033083]}, {"neuron_id": "4", "weights": [-0.1599904196306622]}, {"neuron_id": "5", "weights": [0.2142775698407953]}]}, {"layer_id": 2, "layer_label": "Hidden", "number_of_neurons": 6, "layer_bias": 0.11262314608434792, "weights": [{"neuron_id": "0", "weights": [0.22010059689194256, -0.27349435465876454, 0.2442692007195839, -0.2769447925738041, 0.15393843050398312, -0.1555042140797842]}, {"neuron_id": "1", "weights": [-0.01443578722745689, -0.1850295234132383, 0.16938604517053774, -0.19445342903945192, 0.16333887951856443, 0.261661194717039]}, {"neuron_id": "2", "weights": [0.10302211281963022, 0.2787428149883406, 0.22708187385789358, -0.11896063705059055, 0.2716725605743305, -0.07744795195214182]}, {"neuron_id": "3", "weights": [-0.25966024522887315, 0.1729303710378823, -0.1769947533411803, -0.05456851575615316, -0.1216446580739431, 0.1658531300588216]}, {"neuron_id": "4", "weights": [-0.1454569980812642, 0.04343119958352132, -0.05169251892576604, 0.0350369928306748, 0.1518504153123399, -0.2659632272575607]}, {"neuron_id": "5", "weights": [-0.16831349383904784, 0.25809220076080436, -0.2693777392173645, -0.11417956857330121, -0.14923105966080968, 0.109499663129573]}]}, {"layer_id": 3, "layer_label": "Hidden", "number_of_neurons": 6, "layer_bias": 0.1337002363173909, "weights": [{"neuron_id": "0", "weights": [0.2921657860930103, 0.2061200036941444, 0.14596418734275127, -0.06902663145700721, 0.03544091959167664, -0.07764391476152081]}, {"neuron_id": "1", "weights": [0.17672569551237582, -0.26411094560361, -0.1528057717935401, -0.1110847954348301, -0.11800414948198099, 0.17490572690685016]}, {"neuron_id": "2", "weights": [-0.2221112434882213, -0.0013239912021403243, -0.05027572066468297, -0.1459859532869266, -0.16859142158689686, 0.14782756291818386]}, {"neuron_id": "3", "weights": [-0.28547427536070474, -0.2088897969613697, -0.10749231295452959, 0.19454790859563315, -0.2716688240650818, 0.06962852799755341]}, {"neuron_id": "4", "weights": [0.18571259047336547, 0.2907197714623373, 0.04621600055232032, 0.258661800970149, 0.2103441071860059, 0.08403614050172695]}, {"neuron_id": "5", "weights": [0.19656732325219475, 0.13614672059615254, -0.2846825873528317, 0.0896409590133484, -0.07222825711878463, -0.0769925176881474]}]}, {"layer_id": 4, "layer_label": "Hidden", "number_of_neurons": 6, "layer_bias": 0.07516381539009098, "weights": [{"neuron_id": "0", "weights": [-0.27100441533779707, 0.0420333621976492, 0.14447896083481204, 0.2605676452497475, 0.041645053509810515, 0.1500487492555333]}, {"neuron_id": "1", "weights": [-0.18084785266586653, -0.20598418621775727, 0.09019155892658515, -0.25827033297138413, 0.10128500026658137, 0.03796281021207877]}, {"neuron_id": "2", "weights": [0.16128254050268565, -0.13647365467530476, -0.03501357164780961, -0.163738038166176, 0.15889810218261127, 0.022875360838851548]}, {"neuron_id": "3", "weights": [-0.16347564193915207, 0.2622779288345952, 0.20644800300736652, -0.1945676263638339, -0.011307364696564313, -0.23954062319706412]}, {"neuron_id": "4", "weights": [0.09164306968877092, 0.018150920691659696, 0.04374249716787221, 0.0794432386920407, 0.22333493485175382, -0.13011974719810243]}, {"neuron_id": "5", "weights": [-0.2362764294945244, 0.09422843033687978, -0.26722707840554916, -0.11287265933837547, 0.1413353425911258, -0.006958564153153961]}]}, {"layer_id": 5, "layer_label": "Hidden", "number_of_neurons": 6, "layer_bias": 0.20700195509014455, "weights": [{"neuron_id": "0", "weights": [0.16550499311830436, 0.18245119797606954, 0.09202042648314301, 0.1953096834964765, 0.2754289091813145, -0.18477923824862647]}, {"neuron_id": "1", "weights": [-0.15498871503582, 0.06658930663692351, 0.19425399587155437, 0.07370566164976303, -0.06300959338492838, 0.28930504364910703]}, {"neuron_id": "2", "weights": [0.03936879288851893, -0.2460867899808711, -0.05656984215700462, -0.27558017247353417, -0.022071383271750202, 0.06564469559940471]}, {"neuron_id": "3", "weights": [-0.05178443197264768, 0.20051394184410729, 0.025793764426630904, 0.22071863787540555, 0.08105402184635031, -0.037592653379056346]}, {"neuron_id": "4", "weights": [0.049687067120054225, 0.26176392783381064, 0.09104762515811929, -0.12069587691143475, -0.19446469036520972, 0.19370980305074562]}, {"neuron_id": "5", "weights": [-0.07030173440844686, -0.21385094605658728, 0.2810517576487222, 0.170558152638302, 0.28771407814696576, 0.11952366927132053]}]}, {"layer_id": 6, "layer_label": "Hidden", "number_of_neurons": 6, "layer_bias": 0.2632108203562414, "weights": [{"neuron_id": "0", "weights": [-0.2711504175220427, -0.1204872912235379, 0.141879326723777, -0.0877973361125508, 0.04058002002111516, 0.01817071725661185]}, {"neuron_id": "1", "weights": [0.06492000641553805, -0.17431765587740594, -0.17660780623812694, -0.24051686012566353, -0.17486074731170076, -0.24994859995041163]}, {"neuron_id": "2", "weights": [0.013686875112677717, 0.054479520288712696, -0.08006688413542103, -0.11501797235805325, 0.12369478383200647, -0.2365074596098485]}, {"neuron_id": "3", "weights": [-0.2379876076598288, 0.1302146400488155, -0.08182295699230108, 0.2172899764708368, -0.0398048566873471, -0.06691704403510879]}, {"neuron_id": "4", "weights": [0.2551105169211275, -0.17203649241310565, 0.0791745528146535, 0.053520856155011474, 0.06899861365229104, -0.20949056597799826]}, {"neuron_id": "5", "weights": [-0.009385198118593991, 0.14869197899145006, -0.29774976866822445, -0.0927019952242847, -0.024744435838688347, 0.20384164164124502]}]}, {"layer_id": 7, "layer_label": "Output", "number_of_neurons": 1, "layer_bias": 0.0959795022782951, "weights": [{"neuron_id": "0", "weights": [0.0445333498768923, 0.050807240823273044, 0.22723563493523283, -0.19124878121582617, -0.07595539376872829, 0.1807219126220895]}]}]}