{"structure": [1, 6, 6, 6, 6, 6, 6, 2, 1], "file": "Data/1in_sine.txt", "activation": "TanH", "layers": [{"layer_id": 0, "layer_label": "Input", "number_of_neurons": 1, "layer_bias": 0.2253930279236026, "weights": [{"neuron_id": "0", "weights": null}]}, {"layer_id": 1, "layer_label": "Hidden", "number_of_neurons": 6, "layer_bias": 0.18352089030467258, "weights": [{"neuron_id": "0", "weights": [0.014073700187101924]}, {"neuron_id": "1", "weights": [-0.18440431196142257]}, {"neuron_id": "2", "weights": [-0.015678185534456816]}, {"neuron_id": "3", "weights": [-0.14403493397242728]}, {"neuron_id": "4", "weights": [-0.26712181306322946]}, {"neuron_id": "5", "weights": [-0.30628480660120344]}]}, {"layer_id": 2, "layer_label": "Hidden", "number_of_neurons": 6, "layer_bias": 0.11018721806722255, "weights": [{"neuron_id": "0", "weights": [-0.2634157056005055, 0.2240356841941098, -0.07883745155516374, -0.20050695326965948, -0.3166873782434018, 0.2372717050939945]}, {"neuron_id": "1", "weights": [-0.0038719265390712273, -0.18619330790853322, 0.3049878436834295, -0.03260096785459419, 0.17851646457738232, 0.17703296069133823]}, {"neuron_id": "2", "weights": [-0.239292595334566, 0.08684925024590903, 0.2187085296620174, -0.15451366715074452, -0.2530823755049763, 0.037472890368418055]}, {"neuron_id": "3", "weights": [0.08847432393185237, -0.3139413277790146, 0.1953822430767728, 0.09603846882141553, 0.2576541673290274, -0.061771511324530494]}, {"neuron_id": "4", "weights": [-0.21102931842031258, -0.08850733640797452, -0.18129435913292255, -0.11676429632899676, -0.1676821987424428, 0.2525200320664859]}, {"neuron_id": "5", "weights": [-0.034505208546530754, -0.27638330250892074, 0.18038129650361195, 0.2648540381162361, 0.224734802232241, -0.08957588578383995]}]}, {"layer_id": 3, "layer_label": "Hidden", "number_of_neurons": 6, "layer_bias": 0.1975020480404779, "weights": [{"neuron_id": "0", "weights": [-0.014727184587832376, -0.3109207313600045, 0.14775237521860435, 0.2551600554538806, -0.26195634339119184, -0.2668234367399506]}, {"neuron_id": "1", "weights": [0.17077952344488712, -0.12623900056728415, 0.26351788461908066, -0.13055749550614631, 0.21938229474298798, -0.09396963768568045]}, {"neuron_id": "2", "weights": [0.17531098599201006, -0.12366528092268357, -0.2126279815639084, 0.08481809547266982, 0.1924905829186219, 0.1667785667356226]}, {"neuron_id": "3", "weights": [0.1448674571585775, 0.05907835096747473, 0.0934523779927266, 0.29843122189578547, 0.11197605761809898, -0.014479158601536472]}, {"neuron_id": "4", "weights": [-0.07486786322637844, 0.015956062299123858, 0.10093826643089539, 0.11269203284230142, -0.10251915516001925, -0.2597207497623602]}, {"neuron_id": "5", "weights": [0.18968517143570393, -0.07638373906332803, 0.051839240319186373, -0.03427272325982065, -0.3026124722960658, -0.27369413149775185]}]}, {"layer_id": 4, "layer_label": "Hidden", "number_of_neurons": 6, "layer_bias": 0.12677953457670407, "weights": [{"neuron_id": "0", "weights": [0.04932643642522059, -0.2926485897045103, 0.22607830722450126, -0.14614695209527917, 0.22997012865420907, -0.11785075198369546]}, {"neuron_id": "1", "weights": [0.18792679142826785, 0.08264690233600894, -0.05278909468710422, 0.06594044033374409, 0.12971150089494513, 0.12124005256126942]}, {"neuron_id": "2", "weights": [0.015055272462454144, 0.08919557019616531, 0.15261801108708217, 0.1579594323661624, -0.022597371196396404, -0.0655045965048124]}, {"neuron_id": "3", "weights": [-0.04073937354098464, -0.12862743973688257, 0.19180350792135434, -0.29386067018821305, 0.1725947625124748, -0.21045918094729982]}, {"neuron_id": "4", "weights": [0.26861947784979034, 0.1557005619792585, -0.17728463445829323, -0.022270547399479607, -0.05490443934751222, 0.03604344391186572]}, {"neuron_id": "5", "weights": [-0.11076988988357189, -0.28338328699040355, 0.006389013399461284, -0.053075419130448616, 0.05082527236928747, -0.008784247370470824]}]}, {"layer_id": 5, "layer_label": "Hidden", "number_of_neurons": 6, "layer_bias": 0.1117653837172587, "weights": [{"neuron_id": "0", "weights": [0.19510247281113394, 0.17234365810448685, -0.14199873953839204, -0.056687039083221806, -0.19430576071506309, -0.29884001062155285]}, {"neuron_id": "1", "weights": [-0.2544469683237908, -0.3279747826281687, 0.04927144616609152, -0.25463352451316895, -0.14623708169947333, -0.00021294966587128764]}, {"neuron_id": "2", "weights": [-0.17265360372251093, 0.20339065445878846, -0.060074539097775416, 0.14430927246962627, 0.047064967501431056, -0.04813588666298652]}, {"neuron_id": "3", "weights": [-0.2770937934556091, -0.04630831649005086, -0.012229222324854952, 0.042718808006452114, -0.017040841950993396, -0.15098237610522228]}, {"neuron_id": "4", "weights": [-0.07180919683585474, -0.21610896439269492, 0.10083106766169753, 0.053054653318374084, 0.07532273897988055, -0.2948043120754581]}, {"neuron_id": "5", "weights": [0.23603560197181944, -0.2316845994346058, 0.1234340215138977, -0.11005223667772902, -0.10196114138647878, 0.2059563801693662]}]}, {"layer_id": 6, "layer_label": "Hidden", "number_of_neurons": 6, "layer_bias": 0.006956803131657485, "weights": [{"neuron_id": "0", "weights": [-0.07279066738711826, -0.09568260062557433, 0.1559920848419084, -0.22724995893643693, -0.06121458220059602, -0.08326237972748396]}, {"neuron_id": "1", "weights": [-0.12298893566181439, -0.012149926643574643, 0.16546632790534713, -0.22091241769470676, -0.214669810263238, -0.010729529261900024]}, {"neuron_id": "2", "weights": [-0.14647519341771179, 0.13141553448485477, 0.093759555686734, 0.07113574128595591, 0.29112249179545435, 0.14772610011576845]}, {"neuron_id": "3", "weights": [-0.1598374685756944, -0.060325696051086515, 0.26646266790936485, 0.14329614237781857, -0.2509845634982526, 0.21338760323829845]}, {"neuron_id": "4", "weights": [-0.055422935793708404, 0.23329822117602964, -0.09719726724713966, -0.2586639898414677, 0.23856078528738375, -0.06704653676840194]}, {"neuron_id": "5", "weights": [-0.1510222597034251, 0.23100088873710722, -0.2511055874987996, -0.24434290416751725, -0.2636971839228116, 0.25501941416956214]}]}, {"layer_id": 7, "layer_label": "Hidden", "number_of_neurons": 2, "layer_bias": 0.18048874170103385, "weights": [{"neuron_id": "0", "weights": [-0.09928849548945268, -0.07126987912017377, -0.0023502865972960313, 0.022845921540636444, 0.16655811074314852, -0.13293119141531345]}, {"neuron_id": "1", "weights": [0.2988556865097607, 0.13870668133785363, 0.2528609562448669, 0.07391995227353741, -0.2741441540595698, 0.09713594641221279]}]}, {"layer_id": 8, "layer_label": "Output", "number_of_neurons": 1, "layer_bias": 0.14727841832190416, "weights": [{"neuron_id": "0", "weights": [-0.33543525902418514, -0.5079844179427302]}]}]}