{"structure": [1, 6, 6, 6, 6, 6, 6, 1], "file": "Data/1in_sine.txt", "activation": "TanH", "layers": [{"layer_id": 0, "layer_label": "Input", "number_of_neurons": 1, "layer_bias": 0.24692489100028864, "weights": [{"neuron_id": "0", "weights": null}]}, {"layer_id": 1, "layer_label": "Hidden", "number_of_neurons": 6, "layer_bias": 0.1654250079677109, "weights": [{"neuron_id": "0", "weights": [-0.16963640583885617]}, {"neuron_id": "1", "weights": [-0.13332056411874416]}, {"neuron_id": "2", "weights": [-0.027343315344703637]}, {"neuron_id": "3", "weights": [0.12498483310095874]}, {"neuron_id": "4", "weights": [-0.1505339156884472]}, {"neuron_id": "5", "weights": [0.22368808830442483]}]}, {"layer_id": 2, "layer_label": "Hidden", "number_of_neurons": 6, "layer_bias": 0.11262314608434792, "weights": [{"neuron_id": "0", "weights": [0.22633658384847533, -0.26860996521740094, 0.2451841272983642, -0.28174806514706474, 0.15946419509707752, -0.16397977002605307]}, {"neuron_id": "1", "weights": [-0.008073210385424539, -0.18000783826911632, 0.17046865144441975, -0.19904794769420625, 0.16899688257867657, 0.2534191739048208]}, {"neuron_id": "2", "weights": [0.10875386581994813, 0.2831789234730207, 0.2277142968166474, -0.12380385195990856, 0.276723461391369, -0.08580541042440928]}, {"neuron_id": "3", "weights": [-0.2531934842236148, 0.17803639166906313, -0.17588616529790702, -0.059221303900865295, -0.11589289951072966, 0.15749859299101443]}, {"neuron_id": "4", "weights": [-0.1391091530930797, 0.048418608251312424, -0.05070096538412996, 0.03027123845999798, 0.15748340291618265, -0.27442701390631963]}, {"neuron_id": "5", "weights": [-0.16186566228359958, 0.2631753909757759, -0.26830323370646536, -0.1188820878474829, -0.14350028469583004, 0.10108570805498648]}]}, {"layer_id": 3, "layer_label": "Hidden", "number_of_neurons": 6, "layer_bias": 0.1337002363173909, "weights": [{"neuron_id": "0", "weights": [0.30237593042909405, 0.20291779670217297, 0.15915115487112128, -0.07668313488308577, 0.04132511905622777, -0.08118642769178291]}, {"neuron_id": "1", "weights": [0.1876375550719853, -0.2670933793796916, -0.1384810957579329, -0.1189114941215392, -0.11166840467440885, 0.17135210484568983]}, {"neuron_id": "2", "weights": [-0.2111639071099189, -0.004208561062705785, -0.03584785048824684, -0.15375106187870766, -0.16222355893241946, 0.14431918518750567]}, {"neuron_id": "3", "weights": [-0.27447051312664456, -0.2117663105985371, -0.09297804817818991, 0.18676135614543998, -0.26526567019616526, 0.06611419933309974]}, {"neuron_id": "4", "weights": [0.19601411225215892, 0.28783145102257707, 0.05970137916470858, 0.25121390832491564, 0.2163176280065126, 0.0806427614019392]}, {"neuron_id": "5", "weights": [0.20747846370208692, 0.13328079915820285, -0.2702976014692709, 0.08190888123332646, -0.06588047965918913, -0.08048449974625518]}]}, {"layer_id": 4, "layer_label": "Hidden", "number_of_neurons": 6, "layer_bias": 0.07516381539009098, "weights": [{"neuron_id": "0", "weights": [-0.28014075095003554, 0.0415469004005011, 0.14968748989973182, 0.27205581453145605, 0.03989677880193549, 0.1546556516182494]}, {"neuron_id": "1", "weights": [-0.18979292304970885, -0.20639433770928048, 0.09551120539442275, -0.24668738013930228, 0.09977992304343111, 0.04269904632357933]}, {"neuron_id": "2", "weights": [0.15264553599487785, -0.13681638968519716, -0.029699748033159046, -0.15228385099168165, 0.15761132685209334, 0.027630405054844178]}, {"neuron_id": "3", "weights": [-0.1724230672006517, 0.2618679729247228, 0.2117700497024668, -0.18298010027507755, -0.012811895362354357, -0.23480211111164143]}, {"neuron_id": "4", "weights": [0.08288023152725531, 0.017754627933734446, 0.048972023873617154, 0.09081802139224264, 0.22187765749440852, -0.12546126567510194]}, {"neuron_id": "5", "weights": [-0.2452284583545447, 0.09381773876353516, -0.2619040437925937, -0.10128183804021626, 0.13982839172949224, -0.002219410307269174]}]}, {"layer_id": 5, "layer_label": "Hidden", "number_of_neurons": 6, "layer_bias": 0.20700195509014455, "weights": [{"neuron_id": "0", "weights": [0.21689431324831226, 0.1762155454813903, 0.06419052756001059, 0.18807558030471438, 0.26976980542966555, -0.19156051002729826]}, {"neuron_id": "1", "weights": [-0.10162077499780035, 0.060617783358090434, 0.16694796669508663, 0.06666520392214027, -0.06744912329604096, 0.28268857313524814]}, {"neuron_id": "2", "weights": [0.09310520571078953, -0.2525926537894353, -0.08562292776347859, -0.28313096106889935, -0.027945601270847685, 0.058566024841573694]}, {"neuron_id": "3", "weights": [0.0011287245204604874, 0.1943691832371247, -0.0019886858957147745, 0.21352829359723494, 0.07601340932923653, -0.044342047681448823]}, {"neuron_id": "4", "weights": [0.10303839169948786, 0.2554442367381369, 0.06264279260672688, -0.12806190908250673, -0.1999005044746188, 0.1867997276933506]}, {"neuron_id": "5", "weights": [-0.01831696949334042, -0.21967855834413855, 0.25441954236428943, 0.16369000196725075, 0.28335912592245216, 0.11306951942645058]}]}, {"layer_id": 6, "layer_label": "Hidden", "number_of_neurons": 6, "layer_bias": 0.2632108203562414, "weights": [{"neuron_id": "0", "weights": [-0.26753221729532645, -0.1695971787858655, 0.1570320232466572, -0.11053509712755921, 0.03297286595361497, -0.023551848595545946]}, {"neuron_id": "1", "weights": [0.08022005064657754, -0.2158453415991235, -0.15314682904255342, -0.2542384245878109, -0.17372860766879994, -0.28210699976984416]}, {"neuron_id": "2", "weights": [-0.0426361720718112, 0.06727049876005145, -0.1311044971902993, -0.13310522084343043, 0.09355061998100953, -0.24227747515469356]}, {"neuron_id": "3", "weights": [-0.17681868670948037, 0.0275840890889234, -0.004807965526759721, 0.19280551538834098, -0.025086601102279782, -0.1374258641653719]}, {"neuron_id": "4", "weights": [0.31200875060276345, -0.31970728398031584, 0.16394642370288653, 0.005198307381859141, 0.07304220551888278, -0.3214022492070547]}, {"neuron_id": "5", "weights": [-0.08624527033161533, 0.17519907787717165, -0.3699976125464211, -0.11324326927971673, -0.06487469119104837, 0.20480507352726954]}]}, {"layer_id": 7, "layer_label": "Output", "number_of_neurons": 1, "layer_bias": 0.0959795022782951, "weights": [{"neuron_id": "0", "weights": [-0.14829364183247695, -0.18640910463615584, 0.03706520082271329, -0.24749743266411717, -0.49440015489318845, 0.21116439297352516]}]}]}