{"structure": [1, 6, 6, 6, 6, 6, 6, 1], "file": "Data/1in_sine.txt", "activation": "TanH", "layers": [{"layer_id": 0, "layer_label": "Input", "number_of_neurons": 1, "layer_bias": 0.24692489100028864, "weights": [{"neuron_id": "0", "weights": null}]}, {"layer_id": 1, "layer_label": "Hidden", "number_of_neurons": 6, "layer_bias": 0.1654250079677109, "weights": [{"neuron_id": "0", "weights": [-0.17884322637747793]}, {"neuron_id": "1", "weights": [-0.1425696446878118]}, {"neuron_id": "2", "weights": [-0.036665127653473274]}, {"neuron_id": "3", "weights": [0.1156944536677706]}, {"neuron_id": "4", "weights": [-0.1597640432921625]}, {"neuron_id": "5", "weights": [0.21450301685067807]}]}, {"layer_id": 2, "layer_label": "Hidden", "number_of_neurons": 6, "layer_bias": 0.11262314608434792, "weights": [{"neuron_id": "0", "weights": [0.22024280439763183, -0.273382275810135, 0.2442927580198194, -0.27704885903279297, 0.15406480712784612, -0.15569030893533328]}, {"neuron_id": "1", "weights": [-0.014290854876616198, -0.18491447252662985, 0.1694132776568151, -0.19455286592172674, 0.16346811137511555, 0.2614803073817316]}, {"neuron_id": "2", "weights": [0.10315280429445556, 0.2788446275539653, 0.22709886963689335, -0.11906583848657773, 0.2717880771288315, -0.07763164219068128]}, {"neuron_id": "3", "weights": [-0.25951297883289276, 0.1730473214469064, -0.1769668993597783, -0.05466917799201256, -0.12151332046264457, 0.1656698271358812]}, {"neuron_id": "4", "weights": [-0.14531230105557613, 0.04354557450517823, -0.05166724344073597, 0.034933787349482305, 0.15197918001869495, -0.2661490261827762]}, {"neuron_id": "5", "weights": [-0.16816662454428372, 0.25820866380574387, -0.2693506332834329, -0.11428134221097899, -0.14910016667367723, 0.10931502340570208]}]}, {"layer_id": 3, "layer_label": "Hidden", "number_of_neurons": 6, "layer_bias": 0.1337002363173909, "weights": [{"neuron_id": "0", "weights": [0.2924065799416546, 0.20603518486929373, 0.14628440808793428, -0.0692244431113033, 0.035574649835098594, -0.07774167941608393]}, {"neuron_id": "1", "weights": [0.1769828052684449, -0.2641910011052149, -0.1524586291884463, -0.11128728964591585, -0.11786014343695701, 0.17480709454024265]}, {"neuron_id": "2", "weights": [-0.22185332015625842, -0.001401743259646851, -0.049926208838226356, -0.14618696678847923, -0.1684466644061822, 0.14773001883366138]}, {"neuron_id": "3", "weights": [-0.28521509778073506, -0.20896743229243206, -0.1071408556616718, 0.19434632827219223, -0.27152330564804883, 0.06953078066502233]}, {"neuron_id": "4", "weights": [0.18595598823357112, 0.29064305352679937, 0.04654416644349563, 0.25846933279300577, 0.21048032550453963, 0.08394225790497098]}, {"neuron_id": "5", "weights": [0.19682452725950367, 0.1360696067245086, -0.2843338409103355, 0.0894408557370359, -0.072083854946107, -0.0770895589462742]}]}, {"layer_id": 4, "layer_label": "Hidden", "number_of_neurons": 6, "layer_bias": 0.07516381539009098, "weights": [{"neuron_id": "0", "weights": [-0.2712184463663939, 0.04203326886381531, 0.14461974649985432, 0.26086785343098456, 0.041630406526222234, 0.15018289273242488]}, {"neuron_id": "1", "weights": [-0.18105688070948214, -0.20598230342010276, 0.09033518468802013, -0.2579677317424439, 0.10127670303212893, 0.03810029332689494]}, {"neuron_id": "2", "weights": [0.16108097742924016, -0.1364702911455381, -0.03487026703528971, -0.16343886363962656, 0.15889481245596465, 0.02301301214228664]}, {"neuron_id": "3", "weights": [-0.16368473814591886, 0.26227981853237115, 0.206591695133977, -0.19426489648153505, -0.011315645501261157, -0.23940307462427843]}, {"neuron_id": "4", "weights": [0.09143812465719736, 0.018152864353961625, 0.04388362070768858, 0.0797403945979355, 0.22332709684370497, -0.12998462928827062]}, {"neuron_id": "5", "weights": [-0.2364856722150365, 0.0942302924271974, -0.2670833754598912, -0.11256985526936128, 0.1413269679302512, -0.006821014111129183]}]}, {"layer_id": 5, "layer_label": "Hidden", "number_of_neurons": 6, "layer_bias": 0.20700195509014455, "weights": [{"neuron_id": "0", "weights": [0.17853798566324766, 0.18023492704800217, 0.08375244395326027, 0.19285111187662748, 0.2730009520442359, -0.1869961112588864]}, {"neuron_id": "1", "weights": [-0.14144827519789432, 0.06442947121686154, 0.1860996357215476, 0.07128500465547279, -0.06514161978796526, 0.28712208752351204]}, {"neuron_id": "2", "weights": [0.05299068903399696, -0.24840689486438142, -0.06522267738418888, -0.2781532915311291, -0.024619142443891608, 0.06332454302057143]}, {"neuron_id": "3", "weights": [-0.03836175254878988, 0.19830939559557703, 0.017516564365219374, 0.21825958083182118, 0.07876683275319919, -0.03981011190845733]}, {"neuron_id": "4", "weights": [0.0632171300273464, 0.25950477228254787, 0.0825913828877528, -0.1232092255009227, -0.19687132387307726, 0.1914434591595874]}, {"neuron_id": "5", "weights": [-0.05711214530950692, -0.2159585604331869, 0.2730972646237643, 0.16819671325963637, 0.28562705439083075, 0.117394123237302]}]}, {"layer_id": 6, "layer_label": "Hidden", "number_of_neurons": 6, "layer_bias": 0.2632108203562414, "weights": [{"neuron_id": "0", "weights": [-0.27211454361268994, -0.1493210658863055, 0.147973223613593, -0.10270267351431796, 0.033827835273908584, -0.006638111004669005]}, {"neuron_id": "1", "weights": [0.06736223239901883, -0.1936797084312003, -0.16979750285726922, -0.24917754854405463, -0.1775673879851705, -0.26569765587362065]}, {"neuron_id": "2", "weights": [-0.032809024845406404, 0.062079846242897495, -0.12131641271922931, -0.13127769630289127, 0.09854075826138448, -0.24422931507390894]}, {"neuron_id": "3", "weights": [-0.18695474058468914, 0.06508699086291636, -0.02302867821387217, 0.20658843633156654, -0.024444370166528527, -0.10669163288890361]}, {"neuron_id": "4", "weights": [0.2896191603762697, -0.25518482095643635, 0.12840328968763168, 0.02664590877319364, 0.07102702137114947, -0.26966813164444065]}, {"neuron_id": "5", "weights": [-0.05932405025777307, 0.15676197322402596, -0.34217766964495405, -0.11023374567715143, -0.051852146789545854, 0.19551744072739796]}]}, {"layer_id": 7, "layer_label": "Output", "number_of_neurons": 1, "layer_bias": 0.0959795022782951, "weights": [{"neuron_id": "0", "weights": [-0.12150085994850038, -0.13037109904261568, 0.05474642800151419, -0.26453242105371716, -0.39493660073070047, 0.14445732844178671]}]}]}